{
  "token2id": {
    "<pad>": 0,
    "<unk>": 1,
    "<s>": 2,
    "</s>": 3,
    "<mask>": 4,
    "!</w>": 5,
    ",</w>": 6,
    "-": 7,
    ".</w>": 8,
    ":</w>": 9,
    "?</w>": 10,
    "A</w>": 11,
    "H": 12,
    "I</w>": 13,
    "L": 14,
    "M": 15,
    "P": 16,
    "S": 17,
    "U": 18,
    "W": 19,
    "a": 20,
    "a</w>": 21,
    "c": 22,
    "d": 23,
    "d</w>": 24,
    "e": 25,
    "e</w>": 26,
    "f": 27,
    "g": 28,
    "g</w>": 29,
    "h": 30,
    "i": 31,
    "k": 32,
    "l": 33,
    "l</w>": 34,
    "m": 35,
    "n": 36,
    "n</w>": 37,
    "o": 38,
    "o</w>": 39,
    "p": 40,
    "p</w>": 41,
    "q": 42,
    "r": 43,
    "r</w>": 44,
    "s": 45,
    "s</w>": 46,
    "t": 47,
    "t</w>": 48,
    "u": 49,
    "u</w>": 50,
    "v": 51,
    "w": 52,
    "w</w>": 53,
    "x</w>": 54,
    "y": 55,
    "y</w>": 56,
    "el": 57,
    "er": 58,
    "an": 59,
    "en": 60,
    "at": 61,
    "od": 62,
    "Us": 63,
    "User": 64,
    "User:</w>": 65,
    "SL": 66,
    "SLM": 67,
    "SLM:</w>": 68,
    "is</w>": 69,
    "on": 70,
    "al": 71,
    "ell": 72,
    "on</w>": 73,
    "ang": 74,
    "angu": 75,
    "angua": 76,
    "anguag": 77,
    "anguage</w>": 78,
    "ent": 79,
    "ci": 80,
    "or": 81,
    "Hell": 82,
    "Ho": 83,
    "How</w>": 84,
    "an</w>": 85,
    "Wh": 86,
    "Wha": 87,
    "What</w>": 88,
    "Py": 89,
    "Pyt": 90,
    "Pyth": 91,
    "pr": 92,
    "in": 93,
    "ed</w>": 94,
    "tw": 95,
    "ar": 96,
    "de": 97,
    "op": 98,
    "ut": 99,
    "om": 100,
    "ati": 101,
    "ation": 102,
    "fi": 103,
    "fici": 104,
    "enc": 105,
    "ence": 106,
    "and</w>": 107,
    "Sm": 108,
    "Smal": 109,
    "Small</w>": 110,
    "Language</w>": 111,
    "Mod": 112,
    "er</w>": 113,
    "ork": 114,
    "do": 115,
    "es</w>": 116,
    "elf": 117,
    "elf-": 118,
    "elf-at": 119,
    "elf-att": 120,
    "elf-attent": 121,
    "elf-attenti": 122,
    "elf-attention</w>": 123,
    "es": 124,
    "Hello</w>": 125,
    "Hello": 126,
    "Hello!</w>": 127,
    "can</w>": 128,
    "hel": 129,
    "help</w>": 130,
    "yo": 131,
    "you</w>": 132,
    "tod": 133,
    "toda": 134,
    "today": 135,
    "today?</w>": 136,
    "Python": 137,
    "Python?</w>": 138,
    "Python</w>": 139,
    "pro": 140,
    "prog": 141,
    "progr": 142,
    "progra": 143,
    "program": 144,
    "programm": 145,
    "programmin": 146,
    "programming</w>": 147,
    "language</w>": 148,
    "us": 149,
    "used</w>": 150,
    "fo": 151,
    "for</w>": 152,
    "so": 153,
    "sof": 154,
    "softw": 155,
    "softwar": 156,
    "software</w>": 157,
    "dev": 158,
    "devel": 159,
    "develop": 160,
    "developm": 161,
    "development": 162,
    "development,</w>": 163,
    "aut": 164,
    "autom": 165,
    "automation": 166,
    "automation,</w>": 167,
    "art": 168,
    "arti": 169,
    "artifici": 170,
    "artificia": 171,
    "artificial</w>": 172,
    "int": 173,
    "intell": 174,
    "intelli": 175,
    "intellig": 176,
    "intelligence": 177,
    "intelligence,</w>": 178,
    "dat": 179,
    "data</w>": 180,
    "sci": 181,
    "science": 182,
    "science.</w>": 183,
    "Model": 184,
    "Model?</w>": 185,
    "Mode": 186,
    "Model</w>": 187,
    "ef": 188,
    "effici": 189,
    "efficien": 190,
    "efficient</w>": 191,
    "dec": 192,
    "decod": 193,
    "decoder": 194,
    "decoder-": 195,
    "decoder-on": 196,
    "decoder-onl": 197,
    "decoder-only</w>": 198,
    "tr": 199,
    "tran": 200,
    "trans": 201,
    "transf": 202,
    "transfor": 203,
    "transform": 204,
    "transformer</w>": 205,
    "ne": 206,
    "netw": 207,
    "network": 208,
    "network.</w>": 209,
    "does</w>": 210,
    "self-attention</w>": 211,
    "work": 212,
    "work?</w>": 213,
    "Self-attention</w>": 214,
    "com": 215,
    "comp": 216,
    "comput": 217,
    "computes</w>": 218,
    "sc": 219,
    "scal": 220,
    "scaled</w>": 221,
    "dot": 222,
    "dot-": 223,
    "dot-pr": 224,
    "dot-prod": 225,
    "dot-produ": 226,
    "dot-produc": 227,
    "dot-product</w>": 228,
    "mat": 229,
    "matr": 230,
    "matri": 231,
    "matrix</w>": 232,
    "oper": 233,
    "operation": 234,
    "operations</w>": 235,
    "ov": 236,
    "over</w>": 237,
    "qu": 238,
    "quer": 239,
    "queri": 240,
    "queries": 241,
    "queries,</w>": 242,
    "ke": 243,
    "key": 244,
    "keys": 245,
    "keys,</w>": 246,
    "val": 247,
    "valu": 248,
    "values": 249,
    "values.</w>": 250
  },
  "frequencies": {
    "<pad>": 1,
    "<unk>": 1,
    "<s>": 1,
    "</s>": 1,
    "<mask>": 1,
    "!</w>": 1,
    ",</w>": 1,
    "-": 1,
    ".</w>": 1,
    ":</w>": 1,
    "?</w>": 1,
    "A</w>": 1,
    "H": 1,
    "I</w>": 1,
    "L": 1,
    "M": 1,
    "P": 1,
    "S": 1,
    "U": 1,
    "W": 1,
    "a": 1,
    "a</w>": 1,
    "c": 1,
    "d": 1,
    "d</w>": 1,
    "e": 1,
    "e</w>": 1,
    "f": 1,
    "g": 1,
    "g</w>": 1,
    "h": 1,
    "i": 1,
    "k": 1,
    "l": 1,
    "l</w>": 1,
    "m": 1,
    "n": 1,
    "n</w>": 1,
    "o": 1,
    "o</w>": 1,
    "p": 1,
    "p</w>": 1,
    "q": 1,
    "r": 1,
    "r</w>": 1,
    "s": 1,
    "s</w>": 1,
    "t": 1,
    "t</w>": 1,
    "u": 1,
    "u</w>": 1,
    "v": 1,
    "w": 1,
    "w</w>": 1,
    "x</w>": 1,
    "y": 1,
    "y</w>": 1,
    "el": 400,
    "er": 350,
    "an": 300,
    "en": 300,
    "at": 300,
    "od": 250,
    "Us": 200,
    "User": 200,
    "User:</w>": 200,
    "SL": 200,
    "SLM": 200,
    "SLM:</w>": 200,
    "is</w>": 200,
    "on": 200,
    "al": 200,
    "ell": 150,
    "on</w>": 150,
    "ang": 150,
    "angu": 150,
    "angua": 150,
    "anguag": 150,
    "anguage</w>": 150,
    "ent": 150,
    "ci": 150,
    "or": 150,
    "Hell": 100,
    "Ho": 100,
    "How</w>": 100,
    "an</w>": 100,
    "Wh": 100,
    "Wha": 100,
    "What</w>": 100,
    "Py": 100,
    "Pyt": 100,
    "Pyth": 100,
    "pr": 100,
    "in": 100,
    "ed</w>": 100,
    "tw": 100,
    "ar": 100,
    "de": 100,
    "op": 100,
    "ut": 100,
    "om": 100,
    "ati": 100,
    "ation": 100,
    "fi": 100,
    "fici": 100,
    "enc": 100,
    "ence": 100,
    "and</w>": 100,
    "Sm": 100,
    "Smal": 100,
    "Small</w>": 100,
    "Language</w>": 100,
    "Mod": 100,
    "er</w>": 100,
    "ork": 100,
    "do": 100,
    "es</w>": 100,
    "elf": 100,
    "elf-": 100,
    "elf-at": 100,
    "elf-att": 100,
    "elf-attent": 100,
    "elf-attenti": 100,
    "elf-attention</w>": 100,
    "es": 100,
    "Hello</w>": 50,
    "Hello": 50,
    "Hello!</w>": 50,
    "can</w>": 50,
    "hel": 50,
    "help</w>": 50,
    "yo": 50,
    "you</w>": 50,
    "tod": 50,
    "toda": 50,
    "today": 50,
    "today?</w>": 50,
    "Python": 50,
    "Python?</w>": 50,
    "Python</w>": 50,
    "pro": 50,
    "prog": 50,
    "progr": 50,
    "progra": 50,
    "program": 50,
    "programm": 50,
    "programmin": 50,
    "programming</w>": 50,
    "language</w>": 50,
    "us": 50,
    "used</w>": 50,
    "fo": 50,
    "for</w>": 50,
    "so": 50,
    "sof": 50,
    "softw": 50,
    "softwar": 50,
    "software</w>": 50,
    "dev": 50,
    "devel": 50,
    "develop": 50,
    "developm": 50,
    "development": 50,
    "development,</w>": 50,
    "aut": 50,
    "autom": 50,
    "automation": 50,
    "automation,</w>": 50,
    "art": 50,
    "arti": 50,
    "artifici": 50,
    "artificia": 50,
    "artificial</w>": 50,
    "int": 50,
    "intell": 50,
    "intelli": 50,
    "intellig": 50,
    "intelligence": 50,
    "intelligence,</w>": 50,
    "dat": 50,
    "data</w>": 50,
    "sci": 50,
    "science": 50,
    "science.</w>": 50,
    "Model": 50,
    "Model?</w>": 50,
    "Mode": 50,
    "Model</w>": 50,
    "ef": 50,
    "effici": 50,
    "efficien": 50,
    "efficient</w>": 50,
    "dec": 50,
    "decod": 50,
    "decoder": 50,
    "decoder-": 50,
    "decoder-on": 50,
    "decoder-onl": 50,
    "decoder-only</w>": 50,
    "tr": 50,
    "tran": 50,
    "trans": 50,
    "transf": 50,
    "transfor": 50,
    "transform": 50,
    "transformer</w>": 50,
    "ne": 50,
    "netw": 50,
    "network": 50,
    "network.</w>": 50,
    "does</w>": 50,
    "self-attention</w>": 50,
    "work": 50,
    "work?</w>": 50,
    "Self-attention</w>": 50,
    "com": 50,
    "comp": 50,
    "comput": 50,
    "computes</w>": 50,
    "sc": 50,
    "scal": 50,
    "scaled</w>": 50,
    "dot": 50,
    "dot-": 50,
    "dot-pr": 50,
    "dot-prod": 50,
    "dot-produ": 50,
    "dot-produc": 50,
    "dot-product</w>": 50,
    "mat": 50,
    "matr": 50,
    "matri": 50,
    "matrix</w>": 50,
    "oper": 50,
    "operation": 50,
    "operations</w>": 50,
    "ov": 50,
    "over</w>": 50,
    "qu": 50,
    "quer": 50,
    "queri": 50,
    "queries": 50,
    "queries,</w>": 50,
    "ke": 50,
    "key": 50,
    "keys": 50,
    "keys,</w>": 50,
    "val": 50,
    "valu": 50,
    "values": 50,
    "values.</w>": 50
  },
  "special_tokens": [
    "<pad>",
    "<unk>",
    "<s>",
    "</s>",
    "<mask>"
  ]
}