e r
i n
a n
e l
a t
S L
SL M
r o
U s
Us er
User :</w>
SLM :</w>
o n
e n
l e
m a
d e
r e
p ro
i s</w>
in g
y o
o r
s t
an d</w>
a l</w>
i on
e d</w>
at ion
yo u</w>
g u
ing ,</w>
a n</w>
t h
a t</w>
an gu
angu a
angua g
in g</w>
i t
c e
el l
a s
h at</w>
t o</w>
a r
o r</w>
L a
anguag e</w>
f or
r a
c i
i g
t o
h o</w>
La w
Law SLM
S ma
Sma l
Smal l</w>
L anguage</w>
M o
de l</w>
de v
dev el
devel o
c o
A m
Am i
Ami t</w>
K u
Ku ma
c re
cre at
ation ,</w>
en ce
c an</w>
as s
ass i
W hat</w>
w ho</w>
Mo del</w>
develo p
co m
com p
s c
c h</w>
creat ed</w>
c t</w>
for m
pro g
prog ra
progra m
program m
s o
q u
o n</w>
m e</w>
f i
fi ci
t i
H o
Ho w</w>
to d
tod a
toda y
today ?</w>
h el
hel p</w>
le ar
a m</w>
LawSLM ,</w>
el y</w>
f ro
fro m</w>
sc r
scr at
scrat ch</w>
b y</w>
Kuma r
a s</w>
c u
e r</w>
o f</w>
A I</w>
assi st
le g
leg al</w>
in form
inform ation,</w>
w it
wit h</w>
programm ing,</w>
w r
wr it
d u
w or
s .</w>
ing .</w>
f or</w>
d o
m en
s ,</w>
t ell
tell ig
ence ,</w>
e s</w>
u t
H ell
Hell o
Hello !</w>
e y</w>
o u
l d</w>
l i
li k
lik e</w>
develop ed</w>
comp le
comple t
complet ely</w>
Kumar .</w>
Kuma r</w>
cu st
cust o
custo m</w>
pro j
proj e
yo u
LawSLM .</w>
b u
bu i
bui l
buil t</w>
assist an
assistan t</w>
a b
d er
d ing</w>
writ ing,</w>
so l
sol v
a l
pro b
prob le
lear n
learn ing,</w>
s e
an s
w hat</w>
n a
na me</w>
s u
r i
c on
e f
ef fici
effici en
efficien t</w>
n e
u r
f er
P y
Py th
ig h
ti fici
tifici al</w>
in tellig
intellig ence,</w>
men t
el f
elf -
elf- at
elf-at t
elf-att en
elf-atten ti
elf-attenti on</w>
comp ut
du ct</w>
p er
o v
k e
s y
sy st
syst e
h ell
hell o</w>
assi s
assis t</w>
h i</w>
h ey</w>
H ey</w>
th er
ther e
there !</w>
w ou
wou ld</w>
lear n</w>
e x
ex p
exp l
expl or
explor e</w>
ma d
mad e</w>
w as</w>
proje c
projec t
project .</w>
W ho</w>
you ?</w>
Kumar ?</w>
th e</w>
develop er</w>
creat or</w>
H e</w>
th is</w>
proje ct</w>
develo p</w>
c a
ca p
cap ab
capab l
capabl e</w>
u n
un der
under st
underst an
understan ding</w>
l anguag
languag e
language ,</w>
pro v
prov i
provi ding</w>
assist ing</w>
e du
edu c
educ ation,</w>
solv ing</w>
re al
real -
real- wor
real-wor ld</w>
proble m
problem s.</w>
ar e</w>
re se
rese ar
resear c
researc h
research ,</w>
g en
gen er
gener al</w>
qu e
que st
quest i
questi on</w>
ans w
answ er
answer ing.</w>
you r</w>
M y</w>
d o</w>
do cu
docu men
documen t</w>
su m
sum ma
summa ri
summari z
summariz ation,</w>
con ce
conce p
concep t
concept s,</w>
writ ing.</w>
Mo d
Mod el
Model ?</w>
( SLM
(SLM )</w>
de co
deco der
decoder -
decoder- on
decoder-on l
decoder-onl y</w>
t r
tr ans
trans form
transform er</w>
ne ur
neur al</w>
ne t
net wor
networ k</w>
de s
des ig
desig n
design ed</w>
ra p
rap i
rapi d</w>
t ra
tra in
train ing</w>
re so
reso ur
resour ce
resource -
resource- efficient</w>
in fer
infer ence
inference .</w>
Pyth on
Python ?</w>
Pyth on</w>
h igh
high -
high- le
high-le v
high-lev e
high-leve l</w>
programm ing</w>
l anguage</w>
w i
wi d
wid ely</w>
u s
us ed</w>
ar tificial</w>
w e
we b</w>
develop ment
development ,</w>
d at
dat a</w>
s ci
sci ence,</w>
a u
au to
auto m
autom ation
automation .</w>
do es</w>
s elf-attention</w>
wor k
work ?</w>
S elf-attention</w>
comput es</w>
sc a
sca le
scale d</w>
do t
dot -
dot- pro
dot-pro duct</w>
m at
mat ri
matri x</w>
o per
oper ation
operation s</w>
ov er</w>
qu er
quer i
queri e
querie s,</w>
ke y
key s,</w>
v al
val u
valu es</w>
m o
mo del</w>
to ke
toke n</w>
r el
rel ation
relation s
relations h
relationsh i
relationshi p
relationship s</w>
a c
ac ro
acro s
acros s</w>
se qu
sequ ence
sequence s.</w>
l a
la w
law ?</w>
La w</w>
syste m</w>
r u
ru le
rule s</w>
en for
enfor c
enforc ed</w>
th ro
thro u
throu g
throug h</w>
so ci
soci al</w>
g ov
gov er
gover n
govern ment
government al</w>
in st
inst it
instit ut
institut ion
institution s</w>
re gu
regu l
regul at
regulat e</w>
con duct</w>
pro t
prot e
prote ct</w>
r igh
righ t
right s.</w>
T el
Tel l</w>
ab ou
abou t</w>
A I
AI .</w>
A r
Ar tificial</w>
I n
In tellig
Intellig en
Intelligen c
Intelligenc e</w>
re fer
refer s</w>
comput ation
computation al</w>
syste m
system s</w>
th at</w>
per for
perfor m</w>
t as
tas k
task s</w>
re qu
requ i
requi r
requir ing</w>
h u
hu m
hum an
human -
human- like</w>
su ch</w>
re as
reas on
reason ing,</w>
proble m</w>
solv ing.</w>
