{
  "token2id": {
    "<pad>": 0,
    "<unk>": 1,
    "<s>": 2,
    "</s>": 3,
    "<mask>": 4,
    "\n</w>": 5,
    "!</w>": 6,
    "(": 7,
    ")</w>": 8,
    ",</w>": 9,
    "-": 10,
    ".</w>": 11,
    ":</w>": 12,
    "?</w>": 13,
    "A": 14,
    "A</w>": 15,
    "H": 16,
    "I": 17,
    "I</w>": 18,
    "K": 19,
    "L": 20,
    "M": 21,
    "P": 22,
    "S": 23,
    "T": 24,
    "U": 25,
    "W": 26,
    "a": 27,
    "a</w>": 28,
    "b": 29,
    "b</w>": 30,
    "c": 31,
    "d": 32,
    "d</w>": 33,
    "e": 34,
    "e</w>": 35,
    "f": 36,
    "f</w>": 37,
    "g": 38,
    "g</w>": 39,
    "h": 40,
    "h</w>": 41,
    "i": 42,
    "i</w>": 43,
    "j": 44,
    "k": 45,
    "k</w>": 46,
    "l": 47,
    "l</w>": 48,
    "m": 49,
    "m</w>": 50,
    "n": 51,
    "n</w>": 52,
    "o": 53,
    "o</w>": 54,
    "p": 55,
    "p</w>": 56,
    "q": 57,
    "r": 58,
    "r</w>": 59,
    "s": 60,
    "s</w>": 61,
    "t": 62,
    "t</w>": 63,
    "u": 64,
    "u</w>": 65,
    "v": 66,
    "w": 67,
    "w</w>": 68,
    "x": 69,
    "x</w>": 70,
    "y": 71,
    "y</w>": 72,
    "z": 73,
    "er": 74,
    "in": 75,
    "an": 76,
    "el": 77,
    "at": 78,
    "SL": 79,
    "SLM": 80,
    "ro": 81,
    "Us": 82,
    "User": 83,
    "User:</w>": 84,
    "SLM:</w>": 85,
    "on": 86,
    "en": 87,
    "le": 88,
    "ma": 89,
    "de": 90,
    "re": 91,
    "pro": 92,
    "is</w>": 93,
    "ing": 94,
    "yo": 95,
    "or": 96,
    "st": 97,
    "and</w>": 98,
    "al</w>": 99,
    "ion": 100,
    "ed</w>": 101,
    "ation": 102,
    "you</w>": 103,
    "gu": 104,
    "ing,</w>": 105,
    "an</w>": 106,
    "th": 107,
    "at</w>": 108,
    "angu": 109,
    "angua": 110,
    "anguag": 111,
    "ing</w>": 112,
    "it": 113,
    "ce": 114,
    "ell": 115,
    "as": 116,
    "hat</w>": 117,
    "to</w>": 118,
    "ar": 119,
    "or</w>": 120,
    "La": 121,
    "anguage</w>": 122,
    "for": 123,
    "ra": 124,
    "ci": 125,
    "ig": 126,
    "to": 127,
    "ho</w>": 128,
    "Law": 129,
    "LawSLM": 130,
    "Sma": 131,
    "Smal": 132,
    "Small</w>": 133,
    "Language</w>": 134,
    "Mo": 135,
    "del</w>": 136,
    "dev": 137,
    "devel": 138,
    "develo": 139,
    "co": 140,
    "Am": 141,
    "Ami": 142,
    "Amit</w>": 143,
    "Ku": 144,
    "Kuma": 145,
    "cre": 146,
    "creat": 147,
    "ation,</w>": 148,
    "ence": 149,
    "can</w>": 150,
    "ass": 151,
    "assi": 152,
    "What</w>": 153,
    "who</w>": 154,
    "Model</w>": 155,
    "develop": 156,
    "com": 157,
    "comp": 158,
    "sc": 159,
    "ch</w>": 160,
    "created</w>": 161,
    "ct</w>": 162,
    "form": 163,
    "prog": 164,
    "progra": 165,
    "program": 166,
    "programm": 167,
    "so": 168,
    "qu": 169,
    "on</w>": 170,
    "me</w>": 171,
    "fi": 172,
    "fici": 173,
    "ti": 174,
    "Ho": 175,
    "How</w>": 176,
    "tod": 177,
    "toda": 178,
    "today": 179,
    "today?</w>": 180,
    "hel": 181,
    "help</w>": 182,
    "lear": 183,
    "am</w>": 184,
    "LawSLM,</w>": 185,
    "ely</w>": 186,
    "fro": 187,
    "from</w>": 188,
    "scr": 189,
    "scrat": 190,
    "scratch</w>": 191,
    "by</w>": 192,
    "Kumar": 193,
    "as</w>": 194,
    "cu": 195,
    "er</w>": 196,
    "of</w>": 197,
    "AI</w>": 198,
    "assist": 199,
    "leg": 200,
    "legal</w>": 201,
    "inform": 202,
    "information,</w>": 203,
    "wit": 204,
    "with</w>": 205,
    "programming,</w>": 206,
    "wr": 207,
    "writ": 208,
    "du": 209,
    "wor": 210,
    "s.</w>": 211,
    "ing.</w>": 212,
    "for</w>": 213,
    "do": 214,
    "men": 215,
    "s,</w>": 216,
    "tell": 217,
    "tellig": 218,
    "ence,</w>": 219,
    "es</w>": 220,
    "ut": 221,
    "Hell": 222,
    "Hello": 223,
    "Hello!</w>": 224,
    "ey</w>": 225,
    "ou": 226,
    "ld</w>": 227,
    "li": 228,
    "lik": 229,
    "like</w>": 230,
    "developed</w>": 231,
    "comple": 232,
    "complet": 233,
    "completely</w>": 234,
    "Kumar.</w>": 235,
    "Kumar</w>": 236,
    "cust": 237,
    "custo": 238,
    "custom</w>": 239,
    "proj": 240,
    "proje": 241,
    "you": 242,
    "LawSLM.</w>": 243,
    "bu": 244,
    "bui": 245,
    "buil": 246,
    "built</w>": 247,
    "assistan": 248,
    "assistant</w>": 249,
    "ab": 250,
    "der": 251,
    "ding</w>": 252,
    "writing,</w>": 253,
    "sol": 254,
    "solv": 255,
    "al": 256,
    "prob": 257,
    "proble": 258,
    "learn": 259,
    "learning,</w>": 260,
    "se": 261,
    "ans": 262,
    "what</w>": 263,
    "na": 264,
    "name</w>": 265,
    "su": 266,
    "ri": 267,
    "con": 268,
    "ef": 269,
    "effici": 270,
    "efficien": 271,
    "efficient</w>": 272,
    "ne": 273,
    "ur": 274,
    "fer": 275,
    "Py": 276,
    "Pyth": 277,
    "igh": 278,
    "tifici": 279,
    "tificial</w>": 280,
    "intellig": 281,
    "intelligence,</w>": 282,
    "ment": 283,
    "elf": 284,
    "elf-": 285,
    "elf-at": 286,
    "elf-att": 287,
    "elf-atten": 288,
    "elf-attenti": 289,
    "elf-attention</w>": 290,
    "comput": 291,
    "duct</w>": 292,
    "per": 293,
    "ov": 294,
    "ke": 295,
    "sy": 296,
    "syst": 297,
    "syste": 298,
    "hell": 299,
    "hello</w>": 300,
    "assis": 301,
    "assist</w>": 302,
    "hi</w>": 303,
    "hey</w>": 304,
    "Hey</w>": 305,
    "ther": 306,
    "there": 307,
    "there!</w>": 308,
    "wou": 309,
    "would</w>": 310,
    "learn</w>": 311,
    "ex": 312,
    "exp": 313,
    "expl": 314,
    "explor": 315,
    "explore</w>": 316,
    "mad": 317,
    "made</w>": 318,
    "was</w>": 319,
    "projec": 320,
    "project": 321,
    "project.</w>": 322,
    "Who</w>": 323,
    "you?</w>": 324,
    "Kumar?</w>": 325,
    "the</w>": 326,
    "developer</w>": 327,
    "creator</w>": 328,
    "He</w>": 329,
    "this</w>": 330,
    "project</w>": 331,
    "develop</w>": 332,
    "ca": 333,
    "cap": 334,
    "capab": 335,
    "capabl": 336,
    "capable</w>": 337,
    "un": 338,
    "under": 339,
    "underst": 340,
    "understan": 341,
    "understanding</w>": 342,
    "languag": 343,
    "language": 344,
    "language,</w>": 345,
    "prov": 346,
    "provi": 347,
    "providing</w>": 348,
    "assisting</w>": 349,
    "edu": 350,
    "educ": 351,
    "education,</w>": 352,
    "solving</w>": 353,
    "real": 354,
    "real-": 355,
    "real-wor": 356,
    "real-world</w>": 357,
    "problem": 358,
    "problems.</w>": 359,
    "are</w>": 360,
    "rese": 361,
    "resear": 362,
    "researc": 363,
    "research": 364,
    "research,</w>": 365,
    "gen": 366,
    "gener": 367,
    "general</w>": 368,
    "que": 369,
    "quest": 370,
    "questi": 371,
    "question</w>": 372,
    "answ": 373,
    "answer": 374,
    "answering.</w>": 375,
    "your</w>": 376,
    "My</w>": 377,
    "do</w>": 378,
    "docu": 379,
    "documen": 380,
    "document</w>": 381,
    "sum": 382,
    "summa": 383,
    "summari": 384,
    "summariz": 385,
    "summarization,</w>": 386,
    "conce": 387,
    "concep": 388,
    "concept": 389,
    "concepts,</w>": 390,
    "writing.</w>": 391,
    "Mod": 392,
    "Model": 393,
    "Model?</w>": 394,
    "(SLM": 395,
    "(SLM)</w>": 396,
    "deco": 397,
    "decoder": 398,
    "decoder-": 399,
    "decoder-on": 400,
    "decoder-onl": 401,
    "decoder-only</w>": 402,
    "tr": 403,
    "trans": 404,
    "transform": 405,
    "transformer</w>": 406,
    "neur": 407,
    "neural</w>": 408,
    "net": 409,
    "networ": 410,
    "network</w>": 411,
    "des": 412,
    "desig": 413,
    "design": 414,
    "designed</w>": 415,
    "rap": 416,
    "rapi": 417,
    "rapid</w>": 418,
    "tra": 419,
    "train": 420,
    "training</w>": 421,
    "reso": 422,
    "resour": 423,
    "resource": 424,
    "resource-": 425,
    "resource-efficient</w>": 426,
    "infer": 427,
    "inference": 428,
    "inference.</w>": 429,
    "Python": 430,
    "Python?</w>": 431,
    "Python</w>": 432,
    "high": 433,
    "high-": 434,
    "high-le": 435,
    "high-lev": 436,
    "high-leve": 437,
    "high-level</w>": 438,
    "programming</w>": 439,
    "language</w>": 440,
    "wi": 441,
    "wid": 442,
    "widely</w>": 443,
    "us": 444,
    "used</w>": 445,
    "artificial</w>": 446,
    "we": 447,
    "web</w>": 448,
    "development": 449,
    "development,</w>": 450,
    "dat": 451,
    "data</w>": 452,
    "sci": 453,
    "science,</w>": 454,
    "au": 455,
    "auto": 456,
    "autom": 457,
    "automation": 458,
    "automation.</w>": 459,
    "does</w>": 460,
    "self-attention</w>": 461,
    "work": 462,
    "work?</w>": 463,
    "Self-attention</w>": 464,
    "computes</w>": 465,
    "sca": 466,
    "scale": 467,
    "scaled</w>": 468,
    "dot": 469,
    "dot-": 470,
    "dot-pro": 471,
    "dot-product</w>": 472,
    "mat": 473,
    "matri": 474,
    "matrix</w>": 475,
    "oper": 476,
    "operation": 477,
    "operations</w>": 478,
    "over</w>": 479,
    "quer": 480,
    "queri": 481,
    "querie": 482,
    "queries,</w>": 483,
    "key": 484,
    "keys,</w>": 485,
    "val": 486,
    "valu": 487,
    "values</w>": 488,
    "mo": 489,
    "model</w>": 490,
    "toke": 491,
    "token</w>": 492,
    "rel": 493,
    "relation": 494,
    "relations": 495,
    "relationsh": 496,
    "relationshi": 497,
    "relationship": 498,
    "relationships</w>": 499,
    "ac": 500,
    "acro": 501,
    "acros": 502,
    "across</w>": 503,
    "sequ": 504,
    "sequence": 505,
    "sequences.</w>": 506,
    "la": 507,
    "law": 508,
    "law?</w>": 509,
    "Law</w>": 510,
    "system</w>": 511,
    "ru": 512,
    "rule": 513,
    "rules</w>": 514,
    "enfor": 515,
    "enforc": 516,
    "enforced</w>": 517,
    "thro": 518,
    "throu": 519,
    "throug": 520,
    "through</w>": 521,
    "soci": 522,
    "social</w>": 523,
    "gov": 524,
    "gover": 525,
    "govern": 526,
    "government": 527,
    "governmental</w>": 528,
    "inst": 529,
    "instit": 530,
    "institut": 531,
    "institution": 532,
    "institutions</w>": 533,
    "regu": 534,
    "regul": 535,
    "regulat": 536,
    "regulate</w>": 537,
    "conduct</w>": 538,
    "prot": 539,
    "prote": 540,
    "protect</w>": 541,
    "righ": 542,
    "right": 543,
    "rights.</w>": 544,
    "Tel": 545,
    "Tell</w>": 546,
    "abou": 547,
    "about</w>": 548,
    "AI": 549,
    "AI.</w>": 550,
    "Ar": 551,
    "Artificial</w>": 552,
    "In": 553,
    "Intellig": 554,
    "Intelligen": 555,
    "Intelligenc": 556,
    "Intelligence</w>": 557,
    "refer": 558,
    "refers</w>": 559,
    "computation": 560,
    "computational</w>": 561,
    "system": 562,
    "systems</w>": 563,
    "that</w>": 564,
    "perfor": 565,
    "perform</w>": 566,
    "tas": 567,
    "task": 568,
    "tasks</w>": 569,
    "requ": 570,
    "requi": 571,
    "requir": 572,
    "requiring</w>": 573,
    "hu": 574,
    "hum": 575,
    "human": 576,
    "human-": 577,
    "human-like</w>": 578,
    "such</w>": 579,
    "reas": 580,
    "reason": 581,
    "reasoning,</w>": 582,
    "problem</w>": 583,
    "solving.</w>": 584
  },
  "frequencies": {
    "<pad>": 1,
    "<unk>": 1,
    "<s>": 1,
    "</s>": 1,
    "<mask>": 1,
    "\n</w>": 1,
    "!</w>": 1,
    "(": 1,
    ")</w>": 1,
    ",</w>": 1,
    "-": 1,
    ".</w>": 1,
    ":</w>": 1,
    "?</w>": 1,
    "A": 1,
    "A</w>": 1,
    "H": 1,
    "I": 1,
    "I</w>": 1,
    "K": 1,
    "L": 1,
    "M": 1,
    "P": 1,
    "S": 1,
    "T": 1,
    "U": 1,
    "W": 1,
    "a": 1,
    "a</w>": 1,
    "b": 1,
    "b</w>": 1,
    "c": 1,
    "d": 1,
    "d</w>": 1,
    "e": 1,
    "e</w>": 1,
    "f": 1,
    "f</w>": 1,
    "g": 1,
    "g</w>": 1,
    "h": 1,
    "h</w>": 1,
    "i": 1,
    "i</w>": 1,
    "j": 1,
    "k": 1,
    "k</w>": 1,
    "l": 1,
    "l</w>": 1,
    "m": 1,
    "m</w>": 1,
    "n": 1,
    "n</w>": 1,
    "o": 1,
    "o</w>": 1,
    "p": 1,
    "p</w>": 1,
    "q": 1,
    "r": 1,
    "r</w>": 1,
    "s": 1,
    "s</w>": 1,
    "t": 1,
    "t</w>": 1,
    "u": 1,
    "u</w>": 1,
    "v": 1,
    "w": 1,
    "w</w>": 1,
    "x": 1,
    "x</w>": 1,
    "y": 1,
    "y</w>": 1,
    "z": 1,
    "er": 1560,
    "in": 1560,
    "an": 1380,
    "el": 1320,
    "at": 1320,
    "SL": 1260,
    "SLM": 1260,
    "ro": 960,
    "Us": 900,
    "User": 900,
    "User:</w>": 900,
    "SLM:</w>": 900,
    "on": 900,
    "en": 900,
    "le": 780,
    "ma": 720,
    "de": 720,
    "re": 720,
    "pro": 660,
    "is</w>": 660,
    "ing": 660,
    "yo": 600,
    "or": 600,
    "st": 600,
    "and</w>": 600,
    "al</w>": 600,
    "ion": 600,
    "ed</w>": 540,
    "ation": 540,
    "you</w>": 480,
    "gu": 480,
    "ing,</w>": 480,
    "an</w>": 420,
    "th": 420,
    "at</w>": 420,
    "angu": 420,
    "angua": 420,
    "anguag": 420,
    "ing</w>": 420,
    "it": 420,
    "ce": 420,
    "ell": 360,
    "as": 360,
    "hat</w>": 360,
    "to</w>": 360,
    "ar": 360,
    "or</w>": 360,
    "La": 360,
    "anguage</w>": 360,
    "for": 360,
    "ra": 360,
    "ci": 360,
    "ig": 360,
    "to": 300,
    "ho</w>": 300,
    "Law": 300,
    "LawSLM": 300,
    "Sma": 300,
    "Smal": 300,
    "Small</w>": 300,
    "Language</w>": 300,
    "Mo": 300,
    "del</w>": 300,
    "dev": 300,
    "devel": 300,
    "develo": 300,
    "co": 300,
    "Am": 300,
    "Ami": 300,
    "Amit</w>": 300,
    "Ku": 300,
    "Kuma": 300,
    "cre": 300,
    "creat": 300,
    "ation,</w>": 300,
    "ence": 300,
    "can</w>": 240,
    "ass": 240,
    "assi": 240,
    "What</w>": 240,
    "who</w>": 240,
    "Model</w>": 240,
    "develop": 240,
    "com": 240,
    "comp": 240,
    "sc": 240,
    "ch</w>": 240,
    "created</w>": 240,
    "ct</w>": 240,
    "form": 240,
    "prog": 240,
    "progra": 240,
    "program": 240,
    "programm": 240,
    "so": 240,
    "qu": 240,
    "on</w>": 240,
    "me</w>": 240,
    "fi": 240,
    "fici": 240,
    "ti": 240,
    "Ho": 180,
    "How</w>": 180,
    "tod": 180,
    "toda": 180,
    "today": 180,
    "today?</w>": 180,
    "hel": 180,
    "help</w>": 180,
    "lear": 180,
    "am</w>": 180,
    "LawSLM,</w>": 180,
    "ely</w>": 180,
    "fro": 180,
    "from</w>": 180,
    "scr": 180,
    "scrat": 180,
    "scratch</w>": 180,
    "by</w>": 180,
    "Kumar": 180,
    "as</w>": 180,
    "cu": 180,
    "er</w>": 180,
    "of</w>": 180,
    "AI</w>": 180,
    "assist": 180,
    "leg": 180,
    "legal</w>": 180,
    "inform": 180,
    "information,</w>": 180,
    "wit": 180,
    "with</w>": 180,
    "programming,</w>": 180,
    "wr": 180,
    "writ": 180,
    "du": 180,
    "wor": 180,
    "s.</w>": 180,
    "ing.</w>": 180,
    "for</w>": 180,
    "do": 180,
    "men": 180,
    "s,</w>": 180,
    "tell": 180,
    "tellig": 180,
    "ence,</w>": 180,
    "es</w>": 180,
    "ut": 180,
    "Hell": 120,
    "Hello": 120,
    "Hello!</w>": 120,
    "ey</w>": 120,
    "ou": 120,
    "ld</w>": 120,
    "li": 120,
    "lik": 120,
    "like</w>": 120,
    "developed</w>": 120,
    "comple": 120,
    "complet": 120,
    "completely</w>": 120,
    "Kumar.</w>": 120,
    "Kumar</w>": 120,
    "cust": 120,
    "custo": 120,
    "custom</w>": 120,
    "proj": 120,
    "proje": 120,
    "you": 120,
    "LawSLM.</w>": 120,
    "bu": 120,
    "bui": 120,
    "buil": 120,
    "built</w>": 120,
    "assistan": 120,
    "assistant</w>": 120,
    "ab": 120,
    "der": 120,
    "ding</w>": 120,
    "writing,</w>": 120,
    "sol": 120,
    "solv": 120,
    "al": 120,
    "prob": 120,
    "proble": 120,
    "learn": 120,
    "learning,</w>": 120,
    "se": 120,
    "ans": 120,
    "what</w>": 120,
    "na": 120,
    "name</w>": 120,
    "su": 120,
    "ri": 120,
    "con": 120,
    "ef": 120,
    "effici": 120,
    "efficien": 120,
    "efficient</w>": 120,
    "ne": 120,
    "ur": 120,
    "fer": 120,
    "Py": 120,
    "Pyth": 120,
    "igh": 120,
    "tifici": 120,
    "tificial</w>": 120,
    "intellig": 120,
    "intelligence,</w>": 120,
    "ment": 120,
    "elf": 120,
    "elf-": 120,
    "elf-at": 120,
    "elf-att": 120,
    "elf-atten": 120,
    "elf-attenti": 120,
    "elf-attention</w>": 120,
    "comput": 120,
    "duct</w>": 120,
    "per": 120,
    "ov": 120,
    "ke": 120,
    "sy": 120,
    "syst": 120,
    "syste": 120,
    "hell": 60,
    "hello</w>": 60,
    "assis": 60,
    "assist</w>": 60,
    "hi</w>": 60,
    "hey</w>": 60,
    "Hey</w>": 60,
    "ther": 60,
    "there": 60,
    "there!</w>": 60,
    "wou": 60,
    "would</w>": 60,
    "learn</w>": 60,
    "ex": 60,
    "exp": 60,
    "expl": 60,
    "explor": 60,
    "explore</w>": 60,
    "mad": 60,
    "made</w>": 60,
    "was</w>": 60,
    "projec": 60,
    "project": 60,
    "project.</w>": 60,
    "Who</w>": 60,
    "you?</w>": 60,
    "Kumar?</w>": 60,
    "the</w>": 60,
    "developer</w>": 60,
    "creator</w>": 60,
    "He</w>": 60,
    "this</w>": 60,
    "project</w>": 60,
    "develop</w>": 60,
    "ca": 60,
    "cap": 60,
    "capab": 60,
    "capabl": 60,
    "capable</w>": 60,
    "un": 60,
    "under": 60,
    "underst": 60,
    "understan": 60,
    "understanding</w>": 60,
    "languag": 60,
    "language": 60,
    "language,</w>": 60,
    "prov": 60,
    "provi": 60,
    "providing</w>": 60,
    "assisting</w>": 60,
    "edu": 60,
    "educ": 60,
    "education,</w>": 60,
    "solving</w>": 60,
    "real": 60,
    "real-": 60,
    "real-wor": 60,
    "real-world</w>": 60,
    "problem": 60,
    "problems.</w>": 60,
    "are</w>": 60,
    "rese": 60,
    "resear": 60,
    "researc": 60,
    "research": 60,
    "research,</w>": 60,
    "gen": 60,
    "gener": 60,
    "general</w>": 60,
    "que": 60,
    "quest": 60,
    "questi": 60,
    "question</w>": 60,
    "answ": 60,
    "answer": 60,
    "answering.</w>": 60,
    "your</w>": 60,
    "My</w>": 60,
    "do</w>": 60,
    "docu": 60,
    "documen": 60,
    "document</w>": 60,
    "sum": 60,
    "summa": 60,
    "summari": 60,
    "summariz": 60,
    "summarization,</w>": 60,
    "conce": 60,
    "concep": 60,
    "concept": 60,
    "concepts,</w>": 60,
    "writing.</w>": 60,
    "Mod": 60,
    "Model": 60,
    "Model?</w>": 60,
    "(SLM": 60,
    "(SLM)</w>": 60,
    "deco": 60,
    "decoder": 60,
    "decoder-": 60,
    "decoder-on": 60,
    "decoder-onl": 60,
    "decoder-only</w>": 60,
    "tr": 60,
    "trans": 60,
    "transform": 60,
    "transformer</w>": 60,
    "neur": 60,
    "neural</w>": 60,
    "net": 60,
    "networ": 60,
    "network</w>": 60,
    "des": 60,
    "desig": 60,
    "design": 60,
    "designed</w>": 60,
    "rap": 60,
    "rapi": 60,
    "rapid</w>": 60,
    "tra": 60,
    "train": 60,
    "training</w>": 60,
    "reso": 60,
    "resour": 60,
    "resource": 60,
    "resource-": 60,
    "resource-efficient</w>": 60,
    "infer": 60,
    "inference": 60,
    "inference.</w>": 60,
    "Python": 60,
    "Python?</w>": 60,
    "Python</w>": 60,
    "high": 60,
    "high-": 60,
    "high-le": 60,
    "high-lev": 60,
    "high-leve": 60,
    "high-level</w>": 60,
    "programming</w>": 60,
    "language</w>": 60,
    "wi": 60,
    "wid": 60,
    "widely</w>": 60,
    "us": 60,
    "used</w>": 60,
    "artificial</w>": 60,
    "we": 60,
    "web</w>": 60,
    "development": 60,
    "development,</w>": 60,
    "dat": 60,
    "data</w>": 60,
    "sci": 60,
    "science,</w>": 60,
    "au": 60,
    "auto": 60,
    "autom": 60,
    "automation": 60,
    "automation.</w>": 60,
    "does</w>": 60,
    "self-attention</w>": 60,
    "work": 60,
    "work?</w>": 60,
    "Self-attention</w>": 60,
    "computes</w>": 60,
    "sca": 60,
    "scale": 60,
    "scaled</w>": 60,
    "dot": 60,
    "dot-": 60,
    "dot-pro": 60,
    "dot-product</w>": 60,
    "mat": 60,
    "matri": 60,
    "matrix</w>": 60,
    "oper": 60,
    "operation": 60,
    "operations</w>": 60,
    "over</w>": 60,
    "quer": 60,
    "queri": 60,
    "querie": 60,
    "queries,</w>": 60,
    "key": 60,
    "keys,</w>": 60,
    "val": 60,
    "valu": 60,
    "values</w>": 60,
    "mo": 60,
    "model</w>": 60,
    "toke": 60,
    "token</w>": 60,
    "rel": 60,
    "relation": 60,
    "relations": 60,
    "relationsh": 60,
    "relationshi": 60,
    "relationship": 60,
    "relationships</w>": 60,
    "ac": 60,
    "acro": 60,
    "acros": 60,
    "across</w>": 60,
    "sequ": 60,
    "sequence": 60,
    "sequences.</w>": 60,
    "la": 60,
    "law": 60,
    "law?</w>": 60,
    "Law</w>": 60,
    "system</w>": 60,
    "ru": 60,
    "rule": 60,
    "rules</w>": 60,
    "enfor": 60,
    "enforc": 60,
    "enforced</w>": 60,
    "thro": 60,
    "throu": 60,
    "throug": 60,
    "through</w>": 60,
    "soci": 60,
    "social</w>": 60,
    "gov": 60,
    "gover": 60,
    "govern": 60,
    "government": 60,
    "governmental</w>": 60,
    "inst": 60,
    "instit": 60,
    "institut": 60,
    "institution": 60,
    "institutions</w>": 60,
    "regu": 60,
    "regul": 60,
    "regulat": 60,
    "regulate</w>": 60,
    "conduct</w>": 60,
    "prot": 60,
    "prote": 60,
    "protect</w>": 60,
    "righ": 60,
    "right": 60,
    "rights.</w>": 60,
    "Tel": 60,
    "Tell</w>": 60,
    "abou": 60,
    "about</w>": 60,
    "AI": 60,
    "AI.</w>": 60,
    "Ar": 60,
    "Artificial</w>": 60,
    "In": 60,
    "Intellig": 60,
    "Intelligen": 60,
    "Intelligenc": 60,
    "Intelligence</w>": 60,
    "refer": 60,
    "refers</w>": 60,
    "computation": 60,
    "computational</w>": 60,
    "system": 60,
    "systems</w>": 60,
    "that</w>": 60,
    "perfor": 60,
    "perform</w>": 60,
    "tas": 60,
    "task": 60,
    "tasks</w>": 60,
    "requ": 60,
    "requi": 60,
    "requir": 60,
    "requiring</w>": 60,
    "hu": 60,
    "hum": 60,
    "human": 60,
    "human-": 60,
    "human-like</w>": 60,
    "such</w>": 60,
    "reas": 60,
    "reason": 60,
    "reasoning,</w>": 60,
    "problem</w>": 60,
    "solving.</w>": 60
  },
  "special_tokens": [
    "<pad>",
    "<unk>",
    "<s>",
    "</s>",
    "<mask>"
  ]
}